TRT-8601-EntropyCalibration2
images: 40008102
467: 3d418306
472: 3d418306
477: 3d418306
482: 3d418306
487: 3d418306
492: 3d418306
497: 3d418306
502: 3d418306
503: 3d418306
877: 3d418306
506: 3d418306
507: 3d418306
880: 3d418306
510: 3d418306
511: 3d418306
883: 3d418306
514: 3d418306
515: 3d418306
886: 3d418306
518: 3d418306
519: 3d418306
889: 3d418306
522: 3d418306
523: 3d418306
892: 3d418306
526: 3d418306
527: 3d418306
528: 3d418306
529: 3d418306
895: 3d418306
532: 3d418306
533: 3d418306
898: 3d418306
536: 3d418306
537: 3d418306
901: 3d418306
540: 3d418306
541: 3d418306
904: 3d418306
544: 3d418306
545: 3d418306
907: 3d418306
548: 3d418306
549: 3d418306
910: 3d418306
552: 3d418306
553: 3d418306
554: 3d418306
913: 3d418306
557: 3d418306
558: 3d418306
916: 3d418306
561: 3d418306
562: 3d418306
563: 3d418306
919: 3d418306
566: 3d418306
567: 3d418306
922: 3d418306
570: 3d418306
571: 3d418306
572: 3d418306
573: 3d418306
925: 3d418306
576: 3d418306
577: 3d418306
928: 3d418306
580: 3d418306
581: 3d418306
931: 3d418306
584: 3d418306
585: 3d418306
934: 3d418306
588: 3d418306
589: 3d418306
937: 3d418306
592: 3d418306
593: 3d418306
940: 3d418306
596: 3d418306
597: 3d418306
598: 3d418306
943: 3d418306
601: 3d418306
602: 3d418306
946: 3d418306
605: 3d418306
606: 3d418306
607: 3d418306
949: 3d418306
610: 3d418306
611: 3d418306
952: 3d418306
614: 3d418306
615: 3d418306
616: 3d418306
617: 3d418306
955: 3d418306
620: 3d418306
621: 3d418306
958: 3d418306
624: 3d418306
625: 3d418306
961: 3d418306
628: 3d418306
629: 3d418306
630: 3d418306
631: 3d418306
632: 3d418306
633: 3d418306
964: 3d418306
636: 3d418306
637: 3d418306
967: 3d418306
640: 3d418306
641: 3d418306
970: 3d418306
644: 3d418306
645: 3d418306
973: 3d418306
648: 3d418306
649: 3d418306
976: 3d418306
652: 3d418306
653: 3d418306
654: 3d418306
979: 3d418306
657: 3d418306
658: 3d418306
982: 3d418306
661: 3d418306
662: 3d418306
667: 3d418306
668: 3d418306
985: 3d418306
671: 3d418306
672: 3d418306
988: 3d418306
675: 3d418306
676: 3d418306
991: 3d418306
679: 3d418306
680: 3d418306
994: 3d418306
683: 3d418306
684: 3d418306
685: 3d418306
997: 3d418306
688: 3d418306
689: 3d418306
1000: 3d418306
692: 3d418306
693: 3d418306
698: 3d418306
699: 3d418306
1003: 3d418306
702: 3d418306
703: 3d418306
1006: 3d418306
706: 3d418306
707: 3d418306
1009: 3d418306
710: 3d418306
711: 3d418306
1012: 3d418306
714: 3d418306
715: 3d418306
716: 3d418306
1015: 3d418306
719: 3d418306
720: 3d418306
1018: 3d418306
723: 3d418306
724: 3d418306
725: 3d418306
1021: 3d418306
728: 3d418306
729: 3d418306
1024: 3d418306
732: 3d418306
733: 3d418306
1027: 3d418306
736: 3d418306
737: 3d418306
1030: 3d418306
740: 3d418306
741: 3d418306
742: 3d418306
1033: 3d418306
745: 3d418306
746: 3d418306
1036: 3d418306
749: 3d418306
750: 3d418306
751: 3d418306
1039: 3d418306
754: 3d418306
755: 3d418306
1042: 3d418306
758: 3d418306
759: 3d418306
1045: 3d418306
762: 3d418306
763: 3d418306
1048: 3d418306
766: 3d418306
767: 3d418306
768: 3d418306
1051: 3d418306
771: 3d418306
772: 3d418306
1054: 3d418306
775: 3d418306
776: 3d418306
1057: 3d418306
779: 3d418306
780: 3d418306
1060: 3d418306
783: 3d418306
784: 3d418306
785: 3d418306
1063: 3d418306
788: 3d418306
789: 3d418306
1066: 3d418306
792: 3d418306
793: 3d418306
794: 3d418306
795: 3d418306
796: 3d418306
797: 3d418306
798: 3d418306
1069: 3d418306
801: 3d418306
802: 3d418306
1072: 3d418306
805: 3d418306
806: 3d418306
1075: 3d418306
809: 3d418306
810: 3d418306
811: 3d418306
1078: 3d418306
814: 3d418306
815: 3d418306
1081: 3d418306
818: 3d418306
819: 3d418306
820: 3d418306
821: 3d418306
822: 3d418306
823: 3d418306
824: 3d418306
1084: 3d418306
827: 3d418306
828: 3d418306
1087: 3d418306
831: 3d418306
832: 3d418306
1090: 3d418306
835: 3d418306
836: 3d418306
837: 3d418306
1093: 3d418306
840: 3d418306
841: 3d418306
1096: 3d418306
844: 3d418306
845: 3d418306
846: 3d418306
847: 3d418306
848: 3d418306
849: 3d418306
850: 3d418306
858: 3d418306
866: 3d418306
874: 3d418306
875: 3d418306
output: 3d418306
